FFFFFFFE
00000016
FFFFFFFE
00000001
0000000F
0000000A
00000004
00000020
FFFFFFF8
FFFFFFFF
FFFFFFF3
00000026
FFFFFFFC
00000000
0000002D
00000027
0000000F
0000002C
FFFFFFFE
00000019
FFFFFFFB
00000010
FFFFFFEE
0000000D
FFFFFFFE
00000019
00000000
00000026
FFFFFFFE
00000008
00000029
0000001C
FFFFFFF4
0000000F
FFFFFFEE
00000052
FFFFFFEF
0000000B
0000001D
FFFFFFF5
00000014
0000000C
00000000
0000001D
00000000
0000000B
00000000
00000013
00000000
0000004D
