00000000
1008E3E4
00000000
0B1604C6
191929EA
A83EE8F8
E4D607B2
F94505E2
F1F405CD
00000000
1205EBF4
E8F1FBED
00000000
00F1E426
F1120A1F
0A163EFE
03E2E427
1B15F4DF
00000000
D328F8E4
00000000
08F0DA00
FF1F0F1F
1525F6F3
00000000
23F9F11C
00000000
2AE51C0E
00000000
00090411
1213D9E0
E137F8DC
DFFFD8F6
E828FBDD
040E0B19
F0160A21
05DEFD03
E5CF04E2
0B1D1318
04ECD007
FBE2F007
FEECC62B
FDFF0402
052F02FD
090AEB05
E214E614
00000000
04292629
00000000
E7101627
