00000000
270B1701
51EADCE2
1CCEE0E3
1216DCF1
00000000
D40BDC26
0DDE3433
5F03F824
CF00DBFB
FFD2DEFB
00000000
00000000
E7B1EFFA
00000000
06FCECFD
00000000
0E14F4EC
00000000
00000000
DAF9C1E0
E51F3AD4
00000000
DA0B1739
00000000
A7F7D8F6
00000000
00000000
1803F0EC
00000000
3B0F48AC
F708EAFE
00000000
EF1DBAEA
F92E32EE
00000000
132F34F9
0C25DFE5
00000000
13D6F625
00000000
00000000
00000000
EBEDD84E
00000000
00000000
E11ED0DF
00000000
F0192F0F
00000000
