000000
4200ED
000000
353AE0
D434CE
B1B8AA
4EC8D2
043ABD
3EE3ED
000000
1CFE0E
D9F1DE
000000
1BD60A
F12221
C211D8
04D824
2B3DDE
000000
D2FBD1
000000
31DF13
DBEC04
2525E3
000000
251A3B
000000
034E0C
000000
EDFD16
2900E8
E801BD
F3CCD6
ECFCCE
E7F215
EC3525
FA0E21
22D0EA
E319FF
2CC609
1CE2ED
09B523
FF04FE
F822D2
15F109
D6CCEA
000000
BFCDF9
000000
0C4F1C
