00000000
191CF710
2512AFCE
2005D5C6
0514E2ED
00000000
E2F5FD2B
F2061739
381DCA40
EDF103CF
F70115CA
00000000
00000000
FBCD1ED1
00000000
F8FD16FB
00000000
0910ECF7
00000000
00000000
DCBDFA14
C716FEEF
00000000
FA091926
00000000
ECEE00CC
00000000
00000000
E814F0F6
00000000
3BF151C4
0512F6FF
00000000
C40BC4E8
CA09F9F4
00000000
271A381D
D51CDDF9
00000000
0CE2D822
00000000
00000000
00000000
FEF5CE48
00000000
00000000
D90ED2EB
00000000
EE321E2F
00000000
