00000000
00000015
FFFFFFF7
FFFFFFFA
00000015
FFFFFFFE
00000022
00000017
0000000B
0000000E
0000000A
FFFFFFFF
FFFFFFFF
00000006
FFFFFFFF
00000015
FFFFFFFF
0000001C
FFFFFFFF
FFFFFFFF
0000001A
00000042
FFFFFFFF
0000001A
FFFFFFFF
0000002F
00000000
FFFFFFFF
00000002
00000000
FFFFFFFE
FFFFFFF7
FFFFFFFF
00000027
00000012
00000000
00000027
00000001
00000000
FFFFFFFD
FFFFFFFF
00000000
00000000
FFFFFFFB
FFFFFFFF
00000000
00000016
FFFFFFFF
00000031
FFFFFFFF
