FE120903
F80C010B
FB110713
E7152E29
D3385348
E4193128
FDEE1702
0BBF11ED
13C215FB
1CD80403
26E0F8F5
2FE5FAF9
21E90105
23F5FF06
21F2030D
22E1040A
17D6FD0E
10DBFA08
04E4F404
FEE7F4F6
FEEAF8F4
FCECFFF3
FBECFFF6
F7F607FE
F8FA0DF8
F30502F9
F6030000
FDFAF4F9
F8FFECF7
FB05EEF8
FEFDEDF1
FFFEF1F7
0105F3F2
010DFCF0
030BFCF8
0A0AF6F0
0400F3EE
0901F3F7
07F7F2F7
06FAF7F5
09FFF7FA
06FAF5FA
07000001
0D01FEFA
0A060602
03FAFBF9
02FEFBFD
FFFBFAFD
F502F903
FAFBF806
FAFAFD02
F802F802
FB00FB00
FBFDFAFD
FB00FCF5
FDF4F7F7
F902F8F9
F603FBFB
FC01FBFD
F1FEFBFB
F5FBFBFE
EDFB0009
EDF5FD05
E6F1F8FF
F2F2FD06
EFF60208
F3F40803
EEF00203
EAF4FA05
ECECFC0B
E8E9F711
E9EAFA0B
EBECFB0A
EDF0FE0B
EEFFFD04
EDFDFB0C
EAECF90E
EEFAF80E
ECFAF603
EBF9FD0B
E4030404
EA050006
E803FF06
EB070308
E5FDFC10
EBFDFE0C
E5070710
E5040408
E80D0E0F
E605090E
EF0604FF
FC050B03
FA050C03
06090EF6
02050CF9
050806F8
FF0000F5
0A05FEF2
1408F8EF
0F0BF4F1
0F08F0F1
FD0DF1F7
020CF6F6
030CFAF0
F609F4EA
FF01FBEE
FAFCFBEF
F90AF9E8
0211F8E0
FF11F9DD
0A10F7DB
0413F5D7
0215F4D2
0A16F0CE
1523F4C9
1922FBC8
181DF7D1
161CF5CD
1A29FCD0
2328FDDC
1D2901E3
2210FBDC
1E1604DA
200CFED9
270EFEE0
2A0D05DD
230C07E8
251105E5
281403EA
2C2308E6
171A04EF
1A1503F2
121A04EA
03170CF0
031913EA
FF110AED
060A02EE
0107F8F6
FAF5F7F4
07FCF4E8
03F9FBF6
0AFAEEF2
01FBF5EC
FE00F6F4
0DF7F6F6
06F8F2F7
09F5F3FA
08F5F2F6
0BF8F001
07F6ED06
08F1ED04
0CF4EE0C
02FDF703
FEF8F204
03F2F507
0CF7F208
02EEF50A
08F4F103
06FCF701
07F4F005
08F4F504
0EFDF505
15FAF206
12FCF307
04F9FCFF
10F6F209
18F6ED0A
13F0F00B
06F5F408
FCF7F905
02FDF803
04FEFC02
FB00FC02
FDF4F808
F70702FE
0009FE05
F90D07FE
FD030106
020AFFFF
F60BFFFA
F90EFFFC
F10A00F7
FD1605FF
FC140005
FC1A0107
F5180403
FD19F8F8
FD0DF805
FA0FF9FD
040FEDF9
0A11F1FD
0012F500
090AF7FB
0910FBFE
05FEF7FF
0E00F508
0DF2EB09
0AE9E906
03E8E6FE
11EDF200
0BEEFB03
16E7FF00
13E600F9
11E902FD
09F6FBF3
0DFD0CF6
09F60BF0
05F200F1
0CF101E8
00F7F5F2
FF04FBF2
04140EF1
FD070EDF
01090CE2
0D0D0EED
0D060DEE
03F1F7F4
0BF5F9ED
0DDFF6E3
07DEF2E2
0EDAEDED
0DF1F1ED
0EF1EDFE
08F2E7F1
0DF6E204
0DFAE1FD
FBF8E4F4
030BE404
F802F4FA
0AFFF1FF
0AFDF202
0EFCF1FE
0D03F60B
0302FC08
1201F704
0BFAF705
0A0DFF08
0901F603
10160701
0AFDFD06
0404F501
0FFCEF04
0401F70B
0F0CF60A
120AF30D
07FEF908
1311F609
04FCF70A
1300F30B
0EFFF50C
0CFEF508
07EEED0A
0CF1F00F
0CFFF000
06FBF20B
03FDF60E
04FCF40D
06EEEF09
02F6F609
02EFF608
02F7F405
FDF9FA0B
FBF0F508
F7FAF80B
FAF1F614
F6FCFE09
FC05FF05
F504041B
F318191D
E323342A
E62D4230
ED323623
00141706
0F0906F9
12120CFE
1E1B0AFB
312819FA
452620EF
311616FA
0700FD14
FDFD0017
0607090D
0E060504
15FBF406
1EEEF70D
23F50313
2C020205
2C080308
3002010A
290DFB0F
201BFB0F
201EFB0E
1F16F60F
1811F40C
1810F507
180EFA07
1805F509
160DFA06
110FFA06
120BFA0D
1008F80A
1212F90F
1113F80A
0915FD0A
120DFC0A
1012FD04
0A0BFD07
060CFD01
040CFE03
0405FC02
030CFD07
020E0302
FD110002
FD0E02FE
FA04FF03
FB0B0105
FF02FF05
FD07FF01
FF0A0204
F9060404
FB070303
FE060006
FF06FFFF
FC010204
F9020000
FD04FF01
FE010102
FE040104
FDFDFF03
FDFDFC02
FAFC0003
FAF90003
FFFF0307
FDF9FFFF
FB010100
FCFC0006
F7FBFEFD
FDFBFF01
F8FAFFFD
F9F4FBFF
FFFEFD04
F80401FD
F900FEFB
F5FF0000
F6FEFE02
FDF7FF02
FAFDFD01
F3FBFCFD
F7FDFFFB
F301FCF8
F9030100
F5F9FCFB
F604FFFE
F601FFFE
F200FFFD
FAFEFCFA
F702FBFC
F40C00FC
06E1F805
03E5F40B
07F1F60C
0EE0F311
07D8E414
FAE0E90E
0BF0D912
0FFDDB17
0FF5DF19
0EE8E70E
19FFEB05
15FAE400
15F2E4FE
0EF1E708
1604E808
1104EA06
0CFAE611
0606EC0B
00F1EC0F
FDF6EB0D
02F2DC14
FBEACD14
F7DFD210
00EBDE0F
0DF2D70E
FEEFF407
04F9F704
04F8FEFD
0303FF09
02F3EF05
0A04F002
04FBF70C
0810F006
F803EE03
F5EFF308
F9F2F508
F307040B
FC09040F
FB060207
F5010504
FC070704
F2FC07FE
F3FB0005
FDF7F207
FD0D0209
050F070D
F5FB0E08
F8010906
0004060D
F9030B16
FF111411
F8FB121B
FA040718
F5060D21
F705051F
F0060A19
FBF90F16
0B00040E
10000301
12F3030E
0EF6FD00
1F0200FF
120001E7
0D0301F2
070402EE
0502E5EC
1109F3DF
1205EEE9
03FCF5F4
0E06F5E7
151600ED
080CFBEE
0D04F7ED
020301DB
12F6F5E4
0204FDF2
0802FCE9
0A04FFF4
0BFBF9FB
07FFF8F5
0CFDF7F9
09EEF805
09F9F1FD
0CF4F602
05F8F403
08FBF101
01EBF0FF
FBE5F10F
FBF0F607
F7EAEE04
F1E3E11B
E8ECE014
EAEADD17
F3F8DC15
E5F1F314
EDEDFF0B
E7EF000B
E9F2EF00
E4FBE9ED
ECEEE4F3
F0FEEAEE
F1F5ECF0
FF13F0FD
F702FAF9
F714FFEB
F903F7EE
F60CF9F8
0027FAF7
FE07FCF5
FD09F6F4
F4F8FCF4
EEFAF3F6
FAFBF3E9
F902F5EF
EDF905F0
F60C0EF1
F9060CF7
E60709FE
EC08FEF9
ED07F6F7
EA09FFEE
EBFF05F8
EA0D06EB
E2F510F9
EE0315E5
E8FC10EF
EFFC07F2
ED030CF6
F2F80D08
F0F5FFFE
F4E9FFFA
FDF904F3
FFECFFFA
FEF1FFF7
FBF60AF5
03F60301
F9EB0103
F9F1F800
F7E5ED01
03E5E403
0AF5F802
02EEF509
02DFEE03
09EFF407
01EDF9F3
08ECF5F1
19FDF2F5
0EEFE8F5
14ECE3F5
0BF7EFEA
12FCF5F3
130C01F0
1300FFF3
1A1106EF
210BFDEF
12F4F701
18FCF7FA
1605FFF5
1B1B0DEC
1B0C01F5
171208FA
170707FA
13020701
030B0309
151B0904
111B0E03
090D06F3
100B0804
121F0D04
030508FE
110601FC
030E010F
02F0FD07
FFF30809
04EDFD08
0DFAFE0C
06F0FF0F
0BE4F50F
05E6F407
09E4F618
00D9F70A
02E1F80B
02E1F811
0CE8EA11
06E6EB08
08F2ED0F
02FAE713
1108E211
15F2E20D
15FBE7FF
0EF6E6FD
0EFBEA02
0E03EBFA
1302E401
120DED0E
04FBE909
0602EC09
05F3EC0D
09F6D809
09F7DF10
02E1D010
FFF5D616
04EED40F
FEFADB04
FFF5EA04
FDE6FA03
FDF102FC
0B01FA06
02F1EAFA
05F7EA06
04FCE901
070BEB03
FAF1E403
FAEFE714
0207F70E
FA03FF05
0309020D
F801F6FD
060AFE03
FD0C0401
EE030E06
030B0302
F1F4FB0A
0409010C
FD0A0905
FA06170C
FC01030E
FC000915
FF080713
00131A24
F306141C
F5000B2B
FE100927
F0051026
EC06111E
0A0E031A
09060608
0F05FF03
12F9FD0B
1BFDF9FD
1800FF01
0FF0F8ED
0EFFFAF1
0F01F8E1
0CF9EDE7
0605F1DD
0A01EAED
0508F7EF
0904F7E3
110CF9F5
0409FAE5
0FFEE6E7
0102FADD
1106FAE7
0F0D01E8
1203FAEB
0AFCFBF2
0EFFF5F9
04FCF3EF
10FAFBFC
08FAFB02
06F4F8FF
0AF4F6FC
02FDFB07
05F4F707
08F1F709
03EAED03
FEEFED10
F5E4EE0E
F1E9D914
EAEBDB19
EDEEDF1D
F1F6E813
ECF0F912
E7EE0006
F0EF0205
E9ECFAFA
F003EBF6
EFFFE7E9
ECFDEDFA
F00CF7F8
FB15FAF7
031201FC
FB0FFFF4
FF16FAF4
FE0DF6F0
FA0FF8F7
F90EF5EE
030FF5F5
000DF6F5
FFFEE9F4
FF01F0F1
040300EC
020804E6
03010CEF
F70608F9
F612080F
F00C01F7
F101F9F6
F712FCEA
F90E05F0
F90C05E9
F00D11EA
F60A1FE9
EE0F22EB
ED0C0BEE
F1020DF2
F0030AFE
F0050BED
F1F901F7
EBF10CEA
F8FC02FD
F9F40EF6
FCF408F4
01F90402
F6EE0204
F9F6F6FB
FBEAF1FF
F9F0F7FD
07F6FB0F
07F2F904
FEEEED08
03F50406
02F1F7F7
0EF1FAFE
13FBFEF4
0CF8F0EC
10F3EEF4
0CFEF6F9
1E0600F6
100101FF
0AF6FBFC
161503FB
150703F9
12F8F803
180509FB
0F0C04FA
0F0A0B00
1B0D07FC
150710F3
0C000C0A
0C010B0B
F906110F
03020808
0D0F1205
020009F9
04030B0E
030C050E
04010501
0A03FFFF
FCF70400
01F30009
FCE7030C
FFEB000C
FAE9FE15
FEE1F809
FBD4F007
05DDF40F
F9FBFEFB
F50903FC
F40800FE
F30700FA
FA1003FD
F71304FA
F41601FB
F910FE01
F112FB01
F814F400
FA10F702
FC18FAFD
0112F1FE
030EF6FE
041EEDFD
0F17FAF5
0D11FCFD
120F01F3
1E06FBF9
13FBFDFA
1BFF00FC
19EDFEF7
18DEF901
21D7F000
19DB06F9
16F0FBFE
11E8F601
13DFFDFB
08E2FDF7
15ECF3FE
0AE8F0F6
FCE5FDF5
F9F9F3F5
F7F2FCF8
F9EAFAFA
F0F003EB
FFF005F5
05F909F1
02FA07F5
F7F900F8
FBEA02FA
04F6FEFA
FBF103FE
FAED0011
08F8FA09
02F4030D
F7F7040E
FCFF050A
00000211
FD020615
08050515
090B0107
02F9FF0B
F9FC010E
0B05FF0C
FFFBFA03
0907F801
0305FB05
030FFEFB
0D00F6FF
08FBF90A
160EF8FB
0D05F7FD
0F05F2FC
1810F106
0805F104
0308F4F7
0F06F308
1403F0FF
0AFAED02
0D00F100
05FFF200
0C04EB01
0501F6FE
020AF707
0F03EFFB
1706F0FF
0E04ECF9
0DFFF303
0AFFF4FC
07F3E9FF
11FEF403
0415FA0A
0C09F4FF
0AFCEC0F
0601F611
0008FE0B
0504FF08
FD05F40D
F705FC0D
F118181B
EA18362E
E934432A
F413150B
FBFE0901
030604FC
0D1F0B06
211E1AF7
372B2EE8
2C1B2701
08FC0013
09FA0317
0A091014
150606FF
0EFCFD0F
16E0F513
23EDFF0E
21FEFE0F
290B060A
3200000C
3009F811
2318F812
2518F512
281AF40B
2110F80B
1A0CFA09
190BF809
120AFA0A
0B0EF908
130EFD05
120BFB0A
080BFC0D
0D0FFB07
0F0EFC08
0D11FC0B
1213FB06
0F130108
0607FB03
0309FE05
030AFD02
02040008
FE0E0101
030C0107
000D0105
F90F0105
FB060004
FB090002
FD07FF08
0008FD02
FD060205
FD060005
FA080204
FA070504
FB000104
FC050201
FFFCFF00
FD060001
01FEFE09
FF0000FE
01FFFE02
FDFE0204
FC03FF01
FBF90501
FD000404
FBFC0304
FEFAFE03
FAFB05FF
FDF70000
FBFB0105
FBF80305
F8FC00FF
FBFA02FD
FCFBFFFC
FBFD07F6
FCFC02FD
F7FB02FD
FAF3FFFF
F7FA0200
F7F5FEFE
F8F702FF
F8F500FF
F30001F7
F5FB0101
F5F402FA
F5FDFEFD
F5F801FA
F0F7FFFB
F30204FB
F3FF00FC
F3F4FA00
F2FD04FB
F605FEFD
0703F905
F70A0200
F40A0B07
F8140004
FC20FF02
0016FAFE
071DF5FD
051FEFF8
0C19F3FB
0E15F0F2
0719ECF5
122AF3FA
0F2AEDF6
121AF409
0413F20B
06FCE80C
070BE70D
100EE613
FEF6D40E
FAE8D80D
04F0DC0F
F7E1E20A
FAE7EA06
06E8ED02
06F0F2F7
04EEF609
0AEAE907
03EBE80B
00EDE80A
FDFBE910
F7EBE310
FDE7E410
FBF6EB03
070AF50C
0606FD11
0D0BF20B
05FCF204
FE06FF01
F8F90407
FAFC060A
FDF0FB12
FA020B10
090D0B10
F1FD1613
FF10100F
05060D18
ECFF1825
FA121726
F6021B32
F8FD0B28
FB04072E
F701FE1C
ECF80212
080A0110
0600F8FF
09F0F3F5
0FFAFB05
1BFCF2F9
1BFEF4FA
0AFAF5F4
0FFAFAF1
14F9E5FF
0AF6ECED
0C07E9E7
0E0BE9E5
0CF8E0EC
0F03F1F8
0B09FAEF
0002F8F7
0B02F0EA
0C06EBDE
10F1F6EC
0708FAE7
0EF5F6E0
0609FCE4
1BFBEFF2
0FF9FAF4
1203EDF0
05F9F802
0D02ED03
0BF8EEFC
00F3F607
0C07FD06
03F9F603
01E9F508
FAE8F60D
F5E7F10D
EFECE61E
EDF1E31A
E7E2E81B
F1F9FE14
E8F0FC17
EAE2060E
EFF60109
EDFCFF00
E90900F1
F705F8F3
F301F5F7
0005FBFD
041BFFFC
0316F904
FD1606FD
091A0800
081501F5
0623F801
0516F50D
0710E000
0414F9F9
0207FBFD
11120EFA
171216F7
191712FD
0D191902
160611EF
120F03EF
0E1B1500
0C140CF2
101010E8
0E1216EC
000F13EC
FA1116F1
090E0BE9
F90B15FA
FC1F15FA
FE0A10F1
07170EF9
F20D12FB
F3FD07F4
FDFA0AFA
F6000B00
01F8FE00
F6F6060E
F4F4050E
FAEDFE15
FAF30413
F7F50211
FFF7FE12
FEFB000C
FDFD010D
FEF1FE0E
FEFB060B
08020808
0B060202
0AFF09FE
01F50206
03FE00FF
FFFB0809
03F80303
FB010B0B
F7FE07FC
F6020C07
F8090BFA
EFFD0DFE
F2FF0700
F8080AF8
EFFE0AF7
F5F90BF6
F9020AFA
F6F80902
F2EB0404
F2FB0EFB
FB040CFE
F3FE0A00
F0F10AFA
F7EE0C00
FAFE0BFC
EEF80B02
F9F404FC
F3ED0001
EDE90000
F0E80202
F4EEFF08
EEF50302
EFF40002
F1F001FD
F0E3F9FB
FF15F8FA
FB1AEB01
041DF8FF
F70E070D
FD172627
F90F1120
00030104
0FF6FCFE
0EE7FAFA
1BEBF100
2AF2EBEF
24E9ECF2
2BF3F202
2202FE04
26020112
23DC0014
24E1F918
18DCF012
06D9E60D
04DBEBFC
0BE6F2ED
0BECF6F1
04EAF9FE
05EF08FA
02F8FFFC
FF0405F6
F811FCFB
FDFCF5F8
03FCE9EE
040CE9EE
FE05E8F1
FD0FEDF1
030FF7EB
091601ED
081AFCE5
0B18F7F1
0906F2EA
0D02F1EB
0EF8E7F7
0CF3F0E9
0DFEEEF4
09FAF0F1
0CF1F3F4
0BFBF3F7
100201F5
0DF8EEFA
FCF5EDFA
FAFBF2F9
F400F2FB
F7F5F109
F6FCF701
FBF5F403
F7EEF3FD
FD0BFB0B
FFF3F900
F4EEF7F4
FBF2F102
F8FEFCFD
00FCF9F9
F402F9F9
F7FEFE05
F1FCF508
F1F9EC07
EFF2F917
EFF4F70D
F608F609
F8F4FA07
F403FE01
EEFAF70B
F5EEEB0F
F0F0F118
F5F2EC1A
F3E8F415
F7F0F312
F505F90E
EBF3F811
EEFAF710
FAFDF11B
E4F6F617
EBE4F31B
F2FFFD1D
EF04001A
EBFAFD0F
E8FB001E
F8E3E92B
E3E6FD1A
F3FB0632
E203102C
EF030C26
E8081425
EB1C2228
EC162329
F60C211B
071F1D0A
181216FE
211119F5
261612F3
440A0EE7
48050FEB
3E0A0BF0
16F8EC02
06FBED08
0D04030A
100701FD
1503F1FF
19FAF107
22F2FB09
18F7FAFB
18F600FF
270001FF
200700FF
170FF7FE
161CF7FB
1913EFFE
1C1CFBF7
0E0FF6FC
1404F600
0F03F9FF
0411F800
0513FC02
040EF80C
0707F409
110BF90F
1608F50E
0D10F905
1113FD06
150F0105
1904FC09
13050006
13050408
050AFC02
0A110001
03190102
051A05FD
FE1501FC
03110102
FB1503FB
FF13FF01
001301FE
FC100300
000701FA
000C0101
F80D01F6
F906FC02
FAFD00FE
F103FDFE
FCFAFF01
F9FBFC01
FF020007
01FBF6FC
FAFCFCFF
02FDFE05
FDFFFA01
00F6F607
F7F5FA0B
FBF8FAFB
FBF2F704
04F1F307
04F9F106
FDF9EDFE
F5EBED05
FAF6F6FE
FBF6EAF7
0000EEF9
FAF9EB01
FAF9EAFB
FDFFEBF8
FE0CF3F4
FA0CEEFF
0104E7F6
F80AF5F6
F616F1F5
F20AF4EC
F714EFE8
FF10F2F0
F817F8F2
FE0CF6F2
F916F5E7
FA1BFBF4
09F2F802
00E1F50B
05EAF30E
10F0F20B
10E6DD0F
05E1E510
04E4DC17
10E9D818
09ECDB12
10EFEA15
14F3E204
19EFDF08
0DF1E207
0BEFE105
1102E60E
0FF5E011
11EEDC11
0BF5E517
04F3EB0E
FEF4E610
06F5DC15
F9E2D818
F9F0D010
F7E5D711
03EDD90C
F9F9F307
FBF2FBF9
09FF01F7
06FBF8FD
05F8F301
0E01F004
0405F906
000CFB09
0901F10F
F7F7F00F
0201F907
FD0C0503
04100508
FE09F902
00060104
FD0E0804
F2020CFB
F7020C06
F6FEFF0F
FE030014
FF080208
F4FF100C
F9021411
FFF3040C
F5FD0712
040B161A
FCFB1012
F1FA070F
EC092125
F3F80B1D
F9FD1123
FAF70C1F
0907000F
06EF0509
1EFFFF11
15F0FA00
1502FFF6
1AF3FCEE
100502E2
1802F6E8
0AFAEFE7
1200ECE8
0E08E8EE
07FBF1F4
0C0BFBEB
120DF4E2
080900F3
081400E6
01FC03E0
0901FCE9
0B0502E7
0BFAFDEF
0B01F7E2
0D02F5FB
FFF3FE01
02F3FAF9
0AF5F309
FBF2F8FE
02EDF8FB
04FCFC02
06F4F508
05FC0007
01F1F608
F5E7ED11
F4E8EE12
F2E0E219
EDEDD913
EEF7D31C
F2F3E119
E6EBEC22
F2EFF007
E6F9FE0A
E6F3E502
EFFEE0F2
EEFFE1EB
F0F5E0F0
F301E9F3
FF0EE7FD
FE0BF6FE
F510FCFA
FB0CF2EC
0210EFF5
F80EFCF2
EE0203F0
EE00FAF3
F50CF8EF
EF04F1F1
F106F6F5
F30BF6F8
F0F602F6
F20C09F5
F310F9F0
EB0A03FB
ED0CFFFA
EA0DEDFB
EA14F8EC
DC000BF7
E3020EF4
EBFA11F4
E4F10FF2
EBFA17F2
F7000CFF
F1FE0EFC
F9F40E04
F0ED0A01
F8F3FF00
F8EC06F9
03EDFB0C
03F104F9
03ECFB02
00EC0108
04E9F207
05F3F307
02E3EE0C
02EBE800
07EAF307
04F2EA0C
0EEEE601
04E1F804
0CF2EDF9
07ECF8F1
17F7F8F9
0DF3E3F1
06E4E7EF
16F8F7F1
1C04F6FB
0B010DF2
1E0C05ED
1F1707F6
1F09FFF8
210000F9
201101FF
1A2107FA
1D1806F1
281B04F3
1F180CF7
1616060D
270CFD04
15190509
18170F03
182504F2
0A0805FE
0C1807FB
0A1207FD
0D1808FF
0F07F5FD
081502FA
FFFF0104
0C0B0206
04060101
04FCFF0E
F9EA0103
07E7EC0A
FDDDF105
